100001001011
1111110110010101
1111110010111100
111011110010
10011011010
1100110010
1111110101100000
1111010101001101
10001010011
1111101100000101
1111101100100101
1111101000101010
1100101100111
110011101110
1010101001
11101010011
11110101101
1010100001011
1110100110011001
1111010111100001
1000001101010
10011001111
1111011100110010
1111101000101100
10001111010101
1111010100111110
101011000
1111001010100001
1111000110
1110011110010011
