1111000100000011
1111010100010010
1111010011011000
1111011001000000
100010010100
1110111100000000
11111100100
110100001
100011100011
1010110100011
1110111111101010
101001010110
100010100110
1111001011100010
10111110000
1111110000110101
1111000010000101
1111111010000001
1110110101
10111100000
11101010001
1101001001
100001111010
100011
1101110100
11100101011
1111111101000110
1111010110001001
111001
1001110000
