1111010010011100
101001010100
1111100111111110
110010111101
1100111111010
11001010111
1001000111000
1111111100111111
11010100011
1111001100110011
1111101001110010
100000011100
1110000110001001
1110111100001100
1111101111001001
1000101100001
1111010111000011
1100011111010111
1110000001
111110101110
10011010101
11101000000
1111000000111000
1000011111110
1110000011111
1101110110111011
1110111110101010
1111011010010100
1001010
1111110000010010
