1111101101000111
1111110001001010
1111011000111011
1111101000000011
110101100
1110101100110000
1111111101000011
1111101011101101
111001001000
11100110
1111011000101101
100000111000
1110100100010011
10000110100
1001011010111
1110111001011
1111001111010100
110011111000
1110111111000110
1001100101
1110101100001110
110111100100
101001011000
1111100101100101
1101111111011111
1111111111101011
1111110101111110
1111001111111111
1111100100111101
10111111010
