1101110001110100
1111111000010000
11100011110
1110100011111011
110100011101
1111001011001110
1111110101000111
1111110010011110
101011100000
1101000011101000
1111111000100111
1001010100011
1110001000001100
100100100101
1111011100100000
101001110000
1111011011101000
110010111
1110101011000111
100001001011
1010111010010
11010110100
1000111101001
111010010101
1111011110001000
1110011010101010
110111100111
1100111001001011
1010111
10110011000
