1111111100011001
1001000010010
1111100011011001
1110111010
1110010
1101000111
1111101011100001
1110111010010010
1010011001011
1111001011111100
1111011010101010
1111001001010100
100110110101
1010001101011
111111
110101000110
10110001101
1000001111001
1110010001011010
1110001101101100
110010100010
1000100100000
1111010001100001
1111011011010111
1110011001111
1110010101000001
1111101110001001
1111001100010100
100001110110
1111110011110000
