1101001010001
110001111100
11011010011
1111100101001111
1111101001010001
1100110001101
1111101110110100
101111111101
1111100010010011
100001000011
1011100000010
1110101111110000
1111000010101101
1101010001100
1110100011010110
1111110100011010
1111001001100111
1111110110111100
100111100000
1111000110111101
1111011001000011
111101100011
1110001011
1111000111000000
10100010100
1111001011000101
1110110100111111
101111000001
1111001100000110
1000011011100
