1111111111101111
1111111111110111
1111111111011110
1111111111011101
1111
1111111111100101
1111111111001010
10100
1000
1111111111010111
10101
100100
1111111111111100
110011
1101
1111111111001100
1111111111011111
11000
101001
110
1111111111111100
1111111111110111
1111111111000001
1111111111111001
100100
1111111111101010
1111111111111110
10110
100
1111111111100011
1111111111000011
10000
11110
1000
1111111111101110
1111
11111
111
111001
1111001
1111110
1010101
1111111111001010
1111111011010001
1111111100110000
110
101000
110011
11000110
10010000
1111110
1111111111111010
10010
100
1111111111011111
1111111111101000
1111111111001111
101010
1111111111111110
1111111111100010
1111111110111100
10110
1101010
10100001
11010010
110001111
1001101101
101111100
11011101
1110111
1111111111100000
1111111011010100
10100000
1001010111
1111111110101010
101111000
1010010010
111101111
11101001
10101000
111
1111111110100110
1111111111111011
0
100010
1111111111111010
1111111111100110
1010
11010
1101011
1001000010
1001110010
1010001101
10100100011
1100101001
1000011010
1111110001110010
1111101001101011
1111111110011101
1111110111000111
1111110010000010
1111110001100100
111001
1011100010
1001001001
1111011101
1100111111
110000011
100111011
1111111110110001
1010
10010
1111111111111101
1010
1111111110110110
100000
1111111111001010
101010110
110010010
1011101111
1101100011
10011010001
1001011110
1111110100000010
1111011111100010
1111010111110011
1111011100011000
1111011110101110
1111100101111101
1111111101010100
1111110111010111
11001000101
10111111111
10100001010
10000101110
111010111
1111110100100100
1111111101101000
1111111110111110
1111111111100101
1111111110100011
110101
1111111111101101
1111111111100100
10110011
11101111
10111001
1000111111
10000110011
1100100001
1010011001
1111010000010011
1110111011011111
1111010011101111
11011011110
1111110010010101
1111101110111111
10111010100
10010000101
1111111010111111
110001000
10110101001
100111110
111111
1111111000010010
1111111101011100
10011
1111111111110101
1111111111100001
11
1111111111100001
1111111110100101
100011011
11000000
110110011
10111001000
10101001111
1101101011
1111110010000000
1110101110111000
1110010110110001
1111011010011011
1110010001
100111000111
110100
11010
1111111111111011
1111110000001101
1111111010100101
1001111111
1111111011111010
1111110101001000
1111110111101111
1111111000011111
1111111110110111
1111111110111111
1111111111000101
11
1111111111110011
1111111011111111
10101111
1101101010
11101001
111111011
10010111101
10110001000
1111101111101001
1110101000001010
1110101000100110
1110001
11100010000
11000011111
111100
1011001000
111011011
1111101101101000
10110001
1111100111110000
1111110000111111
1111101110011101
1111110001011110
1111110111000011
1111111100101011
1111111111011100
1
1111111111111111
1101101
1111111110101001
1010110
10011011101
110001101
1111111111011011
1000101111
10011111111
100010110
1110111011111101
1110111011101101
1111111010000101
1011111110
11000101010
1100000010
1111111000
110100010
1111101111111110
1111011010010000
1111011110110100
1111100101111000
1111011110010111
1111101011110110
1111110101010000
1111111101011000
1111111110101110
1111111111110100
1111
1111111111110101
1111111101001100
1011000
1000010100
1111110110110011
1111111000001111
1111111011001010
1000000101
1111111101011100
1111000111010101
1111000101011011
1111100010100011
11110111
10001100101
1111111101111000
1111111110100110
1111100100010010
1111111011000101
1111111111111110
1111110010101010
1111100001111101
1111100001001110
1111110000110100
1111111000100000
1111111110000111
0
1111111111100110
1111111111001101
1111111111100011
1111111000110111
1111111101011010
11011000
1111011010110001
1111111100011000
111011110
1111111011000110
1111111110101100
1111100000001000
1111101011100011
1111101000110101
10111111011
1111111101011001
1111110010110100
10010011
1111111111010101
10000010
1111111011110100
1111110010100001
1111110010011100
1111101000101101
1111110000100010
1111111000101100
1111111110101100
1111111111111001
11011
1111111111110110
1111111100010010
1111111001111000
1111110011001111
1111111011110001
1111100000111100
1111110110000110
10001011101
1101111011
1110011101
1111010100101111
1111100111110010
1111111101011101
1111111100010111
1111110110101010
11110
1111101000001101
1111110000111100
1111100010000010
1111101101111011
1111111000111001
1111110100100000
1111111100110010
1111110101000000
1111111011000101
1111111101111111
1111111110010001
1111111111011010
1111111111111111
1111111110011110
1111110111111111
1111101001100001
1111111010001001
1111111110010111
100111100
1001000001
100010011
1101111010
1111110111000111
100011011
1110110101
1111110010010001
1111110100010001
11000001110
1111101010010100
1111101110010100
1111100000001110
1111110101010010
1111110011001001
1111110011101010
11101111
10011010
1111111001000100
1111111001111101
1111111101100010
1111111111110101
110100
1111111110111000
1111111010110111
1111110010111111
1111111100011001
100101001110
1111111110100101
1111111111011110
1111111011011001
1001001111
1011011001
10110000
101101110
1111100101010010
1111111110101011
11100010101
111001101
1010111000
1111111011111100
1111111010011010
100101010
1111111110001111
10011010011
1111111101011101
1111110111010111
1111111100001110
1010
101010
1001
1111111111101010
1110
101001010
10110010011
11000110101
10000001111
111111
10000
1001001000
1011100110
10110010001
1110001011
1111110100110110
1111100111001001
10011001110
10100010000
1111111011101000
1011100110
11011001
100100101
10110001010
1100100100
1111111101111100
110100
1111111111001001
1111111111111111
11110
1111111111010010
10011101
100011111
1000000010
1100010001
1111110111
1011000001
1001110
1111111111010001
1111111101110100
1111111001001101
101000100000
11001100010
1111110001101111
1111111101001000
10110000
1111111110
1011110
10100110000
101010110
1111110101100101
11000101000
1011111111
10100
1100000111
1001011
111110
1111111111101011
1111111111110100
111011
1000000
1111111011100001
11101111
1111111110010110
1100110110
1001110000
1010110100
100011111
10011001
1111111111111000
100101101
1111110110101110
1110001100
11010011
110101100
10001110001
101000010
10101100100
1011000010
1111110101111100
100010011
111000
1110111101
1011001
1111111110111000
1111111111101000
100
11000100
11000001
1000101001
1111110100101101
1111111000100000
1110101
111001101
10001010110
111100110
1111111001001000
1111110011010001
1111101110010101
1111111011000110
1100110000
10111001101
10100
101011001
1111110110000100
10010000000
10001100101
1111111001001101
1111111100111100
1111110110010101
10101101
1111111110100001
1111111111111011
100010
1110
1010110
111111011
1001101110
1111111011010100
1111110010001100
1111101110101000
1001101000
10101101100
1111111011100100
1111110101110100
11000000100
10011
1100110001
10101011001
11011000011
10100110
10010011000
110000100
1110100110
1010110000
1111110110000010
100001111
1111110111111111
1111110110111001
1111111111011101
1111111111011100
1111111111101001
100110
1111111111101110
1110001
101000111
1111111111100100
1111110000101011
1111110100101000
1111110000100011
101110001
1111111011001111
1111110111000111
1111111110000101
1111100111111001
1111111110101100
10100011001
100010111
1111111000111001
1100011010
1111111010100111
1111111111110000
1111111111000110
1111110000100100
1111101101101000
1111101011100101
1111110100100101
1111111111101010
111
1111111111011001
1111111110101110
11101
1111111010011110
1111111110000000
1111111101001100
1111101101110110
1111110010001100
1111101001100100
1111111111101010
1111111101011110
1111110000111110
1111111101011001
1111100110001111
1111101101011110
1111110000101000
1111111000001101
101000101
11001111001
1111110010000000
1111110001101010
1111110101001101
1111100101110010
1111100000010011
1111101001011001
1111110011000110
100
111
1111111111101111
1111111111110100
1111111111010000
1111111010111101
1111111101010010
1111111101111101
1111110010001101
1111101100010110
1111111010111110
100011111
1111110101011110
100100
10010000010
1111111111100000
11111110
1111110011101101
1100100100
10000110100
10001001100
1111111001001101
1111110010011111
1111111110100001
1010100
1111101111000001
1111110000010101
1111111111000110
1111111111100111
110010
1111111111111111
10011
1111111111101111
1111111101111101
1111111100100110
1111110111110001
1111101110110010
1111101111001000
1111111011101110
1111111100100111
1111111100010010
1111111011110110
1111110111111100
1111101100011000
110100110
111011101
1111111110101101
1111101001010011
1111100110001000
1111110100001111
1101101
10001010001
110011101
1111101100110000
1111110111000011
1111111110111100
1111111111110011
111
1111111111111101
1111111111101000
1111
1111111111111000
1111010
1111111101010011
1111111000001010
1111110010001100
1111111001011111
1111111000000101
1111101100110100
1111101101000110
1111101001010111
1111100011011000
1111101000101111
1111101010111000
1111100111011010
1111011111111101
10001001000
1101001000
1001001101
1111000101
110100001
1111111110011110
1111111100001011
1111111111011100
11100
110100
11011
1111111111110010
11100
11111
110100
1111111111011110
1111111111010011
1111111101001100
1111110111100110
1111110010100010
1111100111110101
1111110110000011
1111101111000001
1111100111011111
1111101100011101
1111111101010100
1111111110111000
1111111000000010
111100100
1111111101001010
1111111101100101
1111111111100011
1110001
1111111111100100
10010
1010001
1001010
1111111111101100
10110
1111111111101010
11100
110101
1111111111100110
1111111111100101
1111111111010000
1111111100101011
1111111001100101
1111110001010111
1111101101110101
1111110011111101
1111110001101001
1111110000100100
1111100000100101
1111111001100011
1111100111111100
1111110010001011
1111110000100100
1111100100001100
1111110011111110
1111110111100110
1111111000001000
1111111101010001
1111111111111001
1011000
1001010
1111111111011001
10111
1111111111100111
1111111111100110
1111111111000001
10010
10100
10100
10
1111111111001110
1111111100010100
1111111001001011
1111111011100101
1111101101010101
1111110001001110
1111110010110101
1111110010011010
1111101111101110
1111101100000011
1111101001111110
1111110101010100
1111110000010000
1111110010110010
1111111011101010
1111111111101010
1111111111111110
1111111111100101
11001
101
1111111111010111
11000
10100
1111111111101101
1111
100000
1000
1111111111001010
10000
1111111111101101
1111111101110111
1111111110010110
1111111110110100
1111111111101000
1111111101001000
1111111111010011
1111111111000001
1111111110110111
1111111110110110
1111111110010100
1111111111011000
1111111111010010
1111111111011110
1111111111011101
1111111111100010
1111111111101000
1111111111101000
1111111111001110
