1110111011101110
1101011010
100011101000
101001000111
1111110110000111
1111010100000100
1110110011010100
1110110111000101
100011001
110010110
1111001000000010
10101000111
1111101001100001
1111011001111011
100100000000
1110011001110001
101000001110
10100011111
100010111100
1111101110001101
11110
1110100001010110
1111110111011010
1001000101000
11001000
11011101100
11010111001
10011101111
11011000101
1111101110000010
