1111000011011001
110000011111
1111011110000101
1111000001111101
1001111011
1111001011100101
1111111001010011
1111010101101000
1011010111111
1111110001101011
1110100100011111
100011111001
1000101001010
101001001011
101010001111
11010110000
1100010001
11001001101
1110110010110100
1111000101110111
101100011110
10011010001
111000011
1110010011
11000010010
1111100100101101
111100001
1111001010100101
1001111101010
10110101111
