1011110000111
1101010101011
111100010111
1100010100101
1111110001000101
1110111010110010
111100000100
10011101000010
1101111111100101
100010010000
1101011101001
1111110111001010
1111001100010000
1111101110111101
1110111010110110
1110010111001010
1010111010101
1111010110101101
10001011010
1111000101110
1101111011000110
1111001111100001
111101011100
1111010010100111
1111100011101011
1111110101110101
110101001101
1110101110
1110
1110111001111010
