1111000001100110
1101111100
1001101010010
1110101010101
1101111111110010
1111110011111011
101000111110
101011100010
1101110000010011
1111011110001011
10010001110
1110111000101011
1111010001100011
111101011110
1111010111001110
1110011110010
11100110001
1100110100011
1111010000001110
1110011100101000
100000100000
1000100001
1000010001110
1110001001100111
1111110011011101
11000001111
1111100011001010
1101111010001
110100101
1111111111000001
