1111010100010010
1001101111000
1011011010101
100001010111
1110001010001100
1111010001110110
1110111100010101
1111011010001010
1111110010001100
1110101101101011
11001000
1111011000111011
1111000000001011
100000111001
10010110011
1111010010000101
1011111001000
1111010001110100
11110101000
1111101100000010
11010011100
1111101011110001
1110101010111101
1000000100010
100101000
1111100100001001
111001100000
100010010101
101111111011
101111110000
