1110011101100111
1111000100111010
10111110000
1111100011100110
1111101010000100
1111010000010000
11101111110
1110110101000101
111000110101
110100011010
1111110101110100
1111111100001001
1111011111011100
1111011011110010
1100001010100
100110111101
1111111000111001
10110010001
1111000000001010
1111100001010110
1111101101001100
1111101101101010
100000010111
100010110000
1111101110110001
1111101110110111
101110110000
1111100111000000
1100101110
100010111
