1111011001011001
1111110011
100100110101
101100000110
1111111100111100
1111110101110111
1110101100110110
1110101000000010
1011110011
1111000100000011
1111100000010000
100000
1100101001
1111100111001100
100111110110
1010110111
111001110101
110000011001
1111000110001100
1111111010001110
1111110101010000
1111010010010100
1111101001000100
100011111110
10011011111
1000111
10110011101
1110110111
101000001100
1111011001110101
