1111111111011111
10011
1111111111111110
1111111110111101
1111111111101101
1111111111001110
1111111111011001
1111111111110011
1111111111011010
11100
1111111111101110
1111111111110011
1111111111011100
1111111111011011
1011
11000
100110
1000
10000
11001
1111111111110110
1111111111100100
1101
1111111110101101
1110
1111111111110010
1111111111010101
10001
1111111111111000
100110
11111
1
1111111111000100
1111111111100110
101111
1111111110011010
1111111111001110
1111111111001101
1111111111101011
1111111111010110
1111111111111100
1000
10100001
110010111
10111
1101
1111111111101001
1111111111110101
111000
1011
101001
1111111111101101
1111111111111011
1111111111101000
101010
1111111111111001
100
101001
1111111111010100
1111111111010000
1100
1111
1111
1111111111000000
1001
1111111111001101
1111111111100010
1111111110101011
11101
110011100
1111111110110010
11100101
1111111111000100
1111111100100100
1110010
1111111110011101
1111111111100001
1111111111100010
1111111110101110
10010
1100110
1111111111110110
1111111111101001
1111111111101100
11
1111111111010100
110
1111111111101001
1111111111010101
1111111110111001
1111111011010011
1111111011101011
100011
1111111010101000
100100111
10111
10000011000
10011001000
1111101110001000
1111100100000011
1111101111110000
110011100
1111111001110100
1111110011101111
1111111100010100
1111111101110001
1111111111011000
1010011
10101000
10010000
1111111111011001
1111111111100111
10001
1111111111010110
101001
11100
1111111111010010
1111111110001001
1111111101111011
11110001
1100000000
1111100111
1111101011
11000111000
10010010100
1111110
1111111110101011
101100100
1111111101100101
1111111011011101
1111111001000000
1111100100111000
1111110101010100
1111110101111000
1110000
1111111101110010
11010110
11001111
11000010
111
1111111111110101
10000
1111111110101100
1101110
11101001
10011111
10000001
1001011101
1111101000
10000100001
110101010
10000110110
111011111
101000100001
11101100111
1111111111000000
101100110
10001001101
1101101000
1111111001110110
110110110
1111011
1000010000
1111111100110000
101000010
11101011
110101
100011
11001
0
1111111111101101
10101100
1111111111110101
1111111011011000
1111111100100011
1000100110
11000011111
10100000011
1010111000
10100001001
101010101111
101011111001
110011000110
1001101010001
100110000000
110001011000
101010101101
11101110
1011001111
10000000001
1111101101110000
1111100011011100
1111111001000100
10000011
100001111
10100001
10111
1111111111101000
1111111110110111
100011011
101000101
1111111110101111
1100110
1100110101
11010010110
1000000101
11000101111
1011001001
110110101010
100111111111
111011001000
110010010100
101000011101
1010010011
100001111100
101111011
100100111
10100100111
1111110101101000
1111110100001011
10001
1111110101110110
1111111111110110
100101
1111111111110001
1111111111100011
1111111110010100
11100001
1010011001
1101000011
1011111011
110111000
101101001101
11010010010
1101101100
1110111100
11000111001
100100000100
1001010110011
100111000111
101010001111
10001011100
11011111111
1111110100
1111111001011011
1111111101111001
110000010
111111010
100001010
1111111000000100
11101000
1111011
1111111111101000
11000
1111111110111110
101001111
10011011000
10000100010
11011110111
11011101011
11000100001
10000110110
1011001101
10100101100
11110001
1101001001
100010011101
11100000010
1111101010100000
1010011001
1111111101011001
10111000
1111111011100010
1111110000011011
1001000110
1111111010001000
110
1101110000
11101010
1011
1111111111010110
1111111111101010
10011
11011011
1000010001
100001
1111010110
100011010
1010001111
101000
10111100
1111111100001110
1111101100001101
1101011000
1111110101111100
1111000001101001
1111101100111101
1111101100111011
1111110001010100
1111111101001000
1111110110111101
100001
1111111111101000
1111111111101001
1111111110111001
1011011000
10010101
110
1111111110110101
1111111111111111
1111111111011000
1111111110111111
100001101
1011000
111100000
1111111001011100
1111110111010001
1111100000010110
1111100000001101
1111100010011011
1111100011110001
1111111011110111
1111100111011110
1111011111000100
1111110011001010
10010000111
1101001100
1111111111110110
10111110
1100101000
10001111001
1001000000
1011101001
1000100010
100101000
1111111111010101
1111111111011110
101100
1111111111101111
1111111010111111
10110011011
1010100000
11111000
1111101100010010
1111011011101001
1111101001000011
1111001111111101
1111000101100111
1111001000110111
1111011100001001
1111110110100101
1111111011011000
1000000010
10001000
1111111001111100
1000101011
1111110011001010
1000111011
1010010111
1000100110
1111111111100100
1111111110111100
101001101
1111111111111100
110
1111111111110010
10111
1111111101100001
10000100010
1111110010001001
1111100110111001
1111110010001001
1111001111111000
1111101100111001
1111100110100111
1111011010111010
1111010010010011
1111111111010000
10110010
1111110001110101
1111111110111100
1111101011111111
1111101111010011
1111111010110100
10010011000
1111101001001001
1111101011101000
1111110000000000
1111110101010011
1111111000110101
1111111101110001
1111111111100010
0
110111
100110
1111111011000010
1111101111000010
1111011110110111
1111110101011110
1111101111001111
1111011001100101
1111001101111111
1111110011010111
1111010010010100
1111010110001000
11000010
111001100
10011101
1111110111001011
1111110011011100
1111111100111001
1111111101010000
1111111111110110
1111110110001000
1111110011111011
1111111010011001
1111110111000101
1111111101011111
1111111111011101
1111111111100110
1111111111110111
110001
1111111101100111
1111101111101001
1111101111011011
1111100001101111
1111101001101011
1111110110100001
1111111110110010
1111100001011000
1111111000101111
10111010
1111110001010110
1011111
1111110111100000
1000101111
1111111111001110
1111111100000001
1111110101101010
1111101101000000
1111111110010111
1111110010110101
1111101111000111
1111111011101100
1111111011001010
1111111011111000
1111111111000100
11111
11010
100
100000
1111111100101101
101101001
1111101001101100
1111101001101100
1111100110100000
1111100101110010
100000000
1111010001
1111110110011111
1111111000010110
1111111100001100
1111110111101101
1111010100110011
1111101110010001
1111110110101101
1111101000100000
1111011010010100
1111110100010001
1111011110110101
1111101011101010
1111110000110111
1111110010101011
1111110101111110
1111111100010111
1111111111111101
1011011
1111111111111100
1111111110101110
10100110
1111111110111011
1111110100011110
1111100011111111
1111100000110111
1111100110011010
1111111001011011
1111111111110001
1111110010101110
1011100001
1111110100100011
111110011
1101101010
1111101110110100
1111101101101011
1111011010011000
1111110010111000
1111110011010011
1111010111111110
1111011100111110
1111111010001101
1111111000010010
1111111100010000
100
1111111111101001
111
10011
1111111111111111
101100
1111110101100010
1111111100001110
1111111101110100
1111101100010101
1111101001100110
1111110001011011
1001010001
10011110011
1111110101011100
1111110111000101
1111111001110001
1111110111010000
1111110101001101
1111110000011101
1111110110100011
1111100000110000
1111110000010011
1111110010010111
1111110100111010
1111111000111100
1111101111000110
1111111011010101
1111111111010011
1111111111000110
1111111111110111
10010
1111111111010101
1111111110110010
1111110010111111
1010101101
11110100000
1001000100
1100011
11111010
1000011100
10111110
10111011111
1110
1111110011110010
1111110011101101
1111101110000011
100100011
1111111100011001
1111111011101001
1000111011
10011001001
1111111111001011
1111111000000010
1111111001000101
1111111110001010
1111111111100111
0
101110
101000
1111111111110000
1111111110100001
1111111010011000
1111101011
101000010101
100000101100
10001011110
111100
1111111001001111
1000100
1111111010000000
1111111100000001
1111100100011111
1111111011101011
1111110010111001
1000010101
1111111110100101
11000111101
11000110100
11111101010
11000001100
101101101
10010001
1111111100100011
1111111111111000
1111111111010010
10000110
1111111111110111
1111111111010010
1111111110101110
1111111101001011
111011111
10101110000
100001111101
10100111101
10000111010
1110000100
1111111001110001
100011111
1111111010010010
10010100110
10000011101
10111101010
11101111
1111010100
1111101000
11110101100
11011011010
10111001011
1111101110
1101111000
1111111110111010
1111111111100001
1111111111100110
1111111111011111
1111111111011101
1111111111001110
1111111111001101
111100
1101001110
1110110100
1011110100
11000110011
11110000010
1011010111
1110101
1011101111
1111110100
100111110001
1000101010
10100101011
10101111010
1111111110
1101101
1110100000
10001111110
11010100000
11111100001
10011011010
1111111111000010
1111111111001101
1111111111111100
1111111111111000
1111111111100101
110000
1111111111101011
1111111111001111
1101010000
11100111
100111010
10000001010
1101110010
101010010
101010010
110000000
100010011000
1100010001
101010100101
100011011010
11011010111
11100101110
100101001010
10110010011
1001001101
11011100111
11000111110
1101101001
1111111111000000
1111111111011000
100101
1111111111101000
0
11010
100111
1110111
11001110
1111110111101001
10001100
11010000011
1000110100
1000110000
10010010010
10101000111
10100000111
1001001011
10000101000
1111111100001001
1111110111101111
10100111000
1110011010
10011111101
1101001010
1110111011
1101001101
111011110
1111111111111011
100
11
1111111111100010
111101
1111111111110010
1111111111101110
10110110
101010101
101011000
10101110101
101110110111
11110101010
1111111101100001
11011000001
11010101010
1011101000
10101011010
1101111011
11000001010
100001101100
110101000
11111110110
10110011110
1000011010
1010111
1111111111001100
1111111111101100
1111111111100010
1111111111000111
11
111
1110
1111111111100000
1111111111011000
101100
11101001
1000111100
1101101101
1101110100
10111011001
11011000001
11011110010
11101110001
100001111000
101001110001
11101011000
11100001110
11000000110
100110111011
11011010001
10000001110
101100110
10100001
111
1111111111011010
1111111111111010
1111111111101010
110010
10001
1011
1111111111010010
1111111111101001
1111111111110100
1111111111011000
11011
1111111111110101
100
11101
100
1001101
11111001
1000010
11010000
10000001
110101
1010001
11111111
100110
11
1111111111111101
10100
11000
1
1111111111010110
1111111111101001
1000
