1111111111000110
100000
1001
100101
11100
1111111111111001
1111111111110111
1111111111101111
11100
100
1111111111101001
11111
1110
1111111111100101
1111111110110111
1111111111101001
111
1111111111010011
100011
1111111111110101
1111111111101111
101000
11001
10010
1111111111011110
1111111111101110
1111111111011100
1111111111101001
1111111111100011
1111111111110000
100
100
1111111111001000
1111111111101100
0
110
1111111111101000
1111111111010010
1111111111000011
1111111111110110
1
1
10101
1011
1111111111011001
100100
1111111111110111
1111111110101100
1111111111101110
1111111111110001
100011
100010
1111111111011110
1011
11110
111111
11001
1111111111101101
11000
1111111111110010
1111
110100
1111111111011000
1111111111100110
1111111100011011
1111111011011000
1111111101100010
1111111100110010
1111111110101001
1111111110100001
1111111111010010
1111111111110010
1111111011111001
1111111010101110
1111111100011010
1111111101110000
1111111110101010
1111111111001110
10110
101111
1111111111100010
110101
1111111111111010
1111111111101011
1111111111110001
1111111111010111
1111111111101110
1010100
1111111111111000
1111111101101100
1111111001000100
1111111110011011
1111111101101011
1111110101011110
1111111010011111
1111110111100010
1111110010011111
1111110110011111
1011100
1101101101
10100100010
1010101000
1111110110011110
1111110110000010
1111110110001101
1111110101010010
1111111000100000
1111111110010100
1111111110010100
1111111110011100
1111111111101000
10100
110111
1111111111110001
1111111111010101
1111111111110111
1111111111101101
1111111110000000
1111111010011110
1111110111100111
1111110010001100
1111110001100111
1111101110000110
1111110101110100
1111111000111101
1101001110
10000101110
101011000
11100111
10001101010
1111001011
11100110
1111111001111100
1111101011010100
1111111000110010
1111111011010101
1111110111100010
1111111100000100
1111111110001111
1111111111110011
0
1111111111111001
1111111111101111
1111111111110010
1100111
1111111110101011
1111111111010000
1111111101010001
1111110110000100
1111110011111000
1111110011101010
1111110111001000
1111110100110101
1111110000011011
1111110010001101
1110011000
11000001010
10111010110
10111111111
10010010100
1111111111111011
1111110110100001
1110100
1111111101000001
1111111001111010
1111111010100010
1111111110110100
1111111110110011
1111
1111111111001101
1111111111110010
1111111111001110
11101111
110010111
100100010
100000
1111110011011101
1111110001010011
1111111000010101
1111111101101011
1111100110000001
1111101001011010
1111111100110111
1110010000
111001001
1110111000
1100101001
1111111100011100
1111110110101111
1111111111100010
10011111
1111111001111110
1111101010010111
1111101111101011
1111111010011001
1111111101100001
1111111111111010
1111111111101110
1001
11
10110010
10101100
111010011
1000001
1111101011111100
1111101110011011
1111110100100100
111111011
1111110101001111
1111110110110011
101000
1111111010111001
1111111011000000
11101011010
11100001010
1011101100
1111111000100000
1101000
1111111001000110
1001000100
1111110010101010
1111110011011011
1111111001110111
1111111111010110
1111111111010100
1100
111100
101010
1111111111011100
111010
1011101111
1101001
1000011
1111101010011000
1111111000011100
1111111001010110
1111110010000000
1111100110011110
1111110101001000
1111110101001100
11000011001
1111101010
1111110110
1111111100101000
1111100100
110100011
1001001001
10101001000
1111110100101011
1111110100110010
1111111011001010
1111111110110001
100101
1111111111010010
11
1111111110110111
1001110
1111111111010010
1111111101001011
1000
1111110110011010
1111111010010111
1111111100110001
1111111110100001
1111110010011111
1111111011001011
1111100010100100
1111110011011110
1111110000100111
1111101000000111
1011101101
11011000111
100010011110
10010110
101010110
11101101000
1111111000011101
1111111011001100
1111111110011100
100011
11101
101110
11010
10
111110
1111111001101100
1111101000000111
1111110
1111111111000010
1111111001011011
1111111010110000
1000110010
100101100
1111111010000011
1001
1111111010110110
1111100011001000
1111100000001010
1111111011000100
11010010
1011100101
11011010101
100000000111
11111001000
1111111110111111
1111111111001101
1111111010101110
1111111111100111
11110
101011
10110101
1011001
100100
1111111000101000
1010101111
1011100000
11001011
101111001
110011000
1111101110100011
1111111010001101
1011010010
1111111101001111
1111111100011000
1111001001111011
1110110101001100
1111111100110110
10000111
1110001111
1100110110
11101101011
11100001010
11001000
1000001
1111111100111101
1111111111010101
100000
101000
10101000
10111
11010010
101010011
1101001000
101100
1111110100101111
1111111100100101
1111111111001000
1111000100
1100001001
1001001111
1110110110
1111101001111100
1110111001010111
1111001101111001
1010110
1110110001
1111111111010011
1111111110100111
10011010100
11011010000
11001011000
110100001
1111111111100000
1111111111010000
1111111111010111
111
111101
1111111010111011
10001011100
100111000
1110101111
11001111
11011110
1111111111011010
110100010
101010011
10010000
1111111110010100
1111111011011001
1111010010011101
1110110101101111
1111100101101111
10010011110
1001010101
1111110011011111
10001
1000111001
1111101000
10001001010
1010101001
1111111111111001
1111111111110000
110010
1111111111111111
1100
1111111010000110
1111111001010011
10001011111
10011101100
11001001010
1010010100
1101111001
101110011
1101101100
101101011
10001101101
1111110110010011
1111010100111101
1111000001101001
1111110111101111
100100001
100001001
10010001011
10100100111
110011101
100101110
1001101100
1010011111
101010
11000
1
1111111111100000
1111111110011011
1111111110100010
1111110010000001
1111111000
110111101
10011011001
1011101111
1110001110
1010011000
10100111
1111111101000011
1111110100111111
1111011101001010
1110111111111000
1111010011011001
10100
111110000
1100101100
1110110111
1111111111010010
1001100001
100101001
111111001
101101010
10001001
110110
10000
1111111111100010
1111111100000110
1111111011001101
1000101
1100111100
1111111000101100
101
1111110000100001
100101100
1111111100111011
1111111001111110
1111101101011001
1111011010110000
1111011110001101
1111011001100011
1111110110000100
1101101011
10100111100
10000100000
111010010
1000111
11
1111110110011010
110111000
10010011
111010
1111111111110001
1001
1111111111000000
1111111100110100
1111111011010100
1011111001
1101010011
101100100
11110011
1001110101
1111110110
1100110000
1111110100100111
1111100110011100
1111011011010110
1111101110110011
10101
1001100010
1111110111100110
10000001
1111111110001010
1111111111101011
1111111111111101
110001101
1111110100110100
1111111000000000
1111111100001111
1111111111100001
111000
101110
1000
101
1111111000110000
110010001
11001100
1111111010100001
1111110101010111
1111110101000101
1100101110
1001011101
1111110001010011
1111010001110110
1111100010100110
1111111101010010
1100011000
1011111001
100001
11101001
1111111101010011
1000010000
1010111
1110010111
1111111011101010
1111110001101001
1111111100111111
10011
11001
1111111111100000
110011
1111111111111111
1111110111010110
1111111111011010
1111111101110001
10010
1111111000101111
1000100110
11011101101
100001111
1111101010001010
1111100110000101
1111101100000000
100101100
1011011000
1111111010101100
1110000011
1001100000
10001111
1111110110000101
1111101110
10001011001
1111111100101101
1111110110000010
1111111010111010
10000
1111111111100110
10011
1111111111110010
101110
1111111101101011
111111
111011101
1010011110
10101000100
1010010110
1111111010100111
1101010101
1111110100101001
1111110011001100
1100
1111110110110110
1111111111100110
110110101
1001100111
1110111011
1111111001110010
1111101101110101
101111010
1111111100000101
1111110110010001
1111110011101000
1111111010010100
111
11
1100
1111111111001101
10100110
1001101111
1111111100110101
1111110101011101
110100110
101101100
1111111011111011
1111111010000011
1000011001
1111110010010101
1111111000000010
10010101
1111111111110010
10010100101
1110101110
110101000
100010010
1111111101011100
1111111001011000
1111111110110110
1001001110
1111111110010011
1111111010011110
1111111110011001
0
101101
1111111111010110
1111111111110110
10101110
1111111110010010
11010010
1111111110010011
110110000
1111111101000100
111000010
1101111100
10001100011
1111111101110011
11001011
1111110001101111
1111101110101001
101011010
1000101010
10111110101
111100001
1111111110101010
1111111110000101
1100100111
111100100
101100
1111111100001011
1111111110101010
110000
1000011
1111111111101101
100000
1111111111010110
1111111010100000
1111111001110111
1111111100100100
1010001111
1111101011
110110110
1111111010011010
1010111111
100110000
1111111011000101
1111101110100001
1111110001100000
111011100
10000011111
11000000100
1111110101000000
1111101010010000
1111110010101111
1111111101101111
101101
1111111101011001
1111111111001001
1111111111010000
1000010
1111111111111000
1111111111100001
1111111111110001
1
1111111111110011
110
1010001
10001010
101111
1111111010100111
111111010
11010101
1010001
1111111110100000
11101101
111101001
1001001111
1000010
1000101010
1111110100100100
1111101101011101
1111101100001101
1111110110011100
1111111110000111
1111111110010111
1111111101110100
1111111111011111
1000
11111
1111111111111011
1111
1111111111010000
1111111111011100
100100
1111111111100111
1111111111011100
110110
1110000
1111111111010000
10000100
110011000
1101010111
1011000111
1010011101
110011100
1000100011
1111111101101001
1111111000000010
1111111000101111
1111111001010011
1111111100101111
11001
1111111110000000
1111111110111010
1111111111111000
110
10110
1
11
1111111111100010
0
10111
1111111110111001
1111111111010100
11010001
111000111
1010000011
1010000110
1001100
11100000
1010101000
1011010010
111010100
1111111111111010
11001000
1111111110111101
111
1111111110100101
1111111111111111
10000000
110000
100001
100000
1111111111011100
0
111
101
10
1111111111111001
1111111111110000
1000010
1111111111111110
10010
1111111111100111
1111111111111011
101101
1111111111101100
1111111110101101
111100
1110101
1110111
10101010
110010
101010
1111111111111101
11010
1010001
11100011
110100
1111111111100110
1111111110111100
11000
111
