1111100101101011
111110111110
1111010010001010
1111001010101010
110100010011
1111000011110100
1111000100101100
101001101
1000011000101
101010101111
1110100110011101
101000100
1111001001001101
101000110010
1111011111110011
11011000011
1110110101110101
101100000100
1111101011001011
1111101010001010
1111001111111100
101010011000
100010010111
11000101100
1111101001010000
1111000110100101
1111110010000011
1111001101011110
1111010110110000
1111011111
