1111111000000111
1111100011111100
1111011101111000
100000111101
1010111100001
1001101
1110111110111111
1111101100100000
1111010110110100
1110011100010
1110110100101001
1001110011
1111100011001101
1110100011010111
1111011110101101
1111000101001111
1110100101100101
1101001111001
1011111011
1011111101
1111101011011110
1111100110011011
1000011001011
101101011000
10001111100
1001011000011
1111110011010001
1111110000010110
1111111010010000
1111001100100000
