1111111110100000
10111010010
10110010010
1110110111110110
1111010111000010
1111011111011000
110101101110
101000100000
110001
1111100011100011
100011111000
10101110000
1101010011
101000000000
1111011001011010
1111011100110100
1111111000111011
1110110110010101
1011010011100
1101000101001
100001110101
11101010110
1111100001110110
1111101001000100
11100111001
110101000
11000001110
1001010000110
1111101001001000
10000010101101
