1111010001110111
10001100000
111111011011
111111000
1110101010001101
1111011100011110
1111010110010010
1111011110010111
1111100010100111
1011111010
1111111111111101
1110111000110101
1111101001111100
1000001000
1111001101101111
1110011001111001
10101110110
1111000110001111
111010011111
1111110111110111
110101011100
1111011110111001
1111001011001010
100000100010
1010011110111
1111001011011111
101011100010
100101110001
1111110011100011
10111001101
