1001001100101
1110011111
11010001000
11101010111
1111110001010110
1011010100100
1111011010101100
100001000101
1111110011100101
11111111101
101010000001
1110111001001001
1111010000100100
1000100101111
1111111100111000
1111010101111111
1111000111100011
10111010010
10101111100
1111010100111110
1111000110110101
101100001011
101111000010
1111101101011111
100011111010
1111110100110000
1111000101000111
11011011000
1111110100111110
10110110011
