1000100111000
10001011101
1111010001100000
1101000011111
1110111001110
100110100101
1101110110111010
1110111111
1110111001001111
1111110111111011
1111010101110110
1111100101000001
1110111110110010
1111111100111110
1111101110010100
1111101001111100
1110101111010000
10100000101000
1111111100110101
1111111111001110
1110111111111010
1010100101
1011111000
1011001001
1111100111111011
101001011011
1111001100001101
1110110111010000
1111101100010001
1111010000010101
