1111001111111101
11110011111
1111010111010110
1110101110101010
1001000110
1111110011100101
1001100110
101010110000
1111101000110100
1111000001011111
100110100100
1101111110001
1111101011011101
1111010000010000
1110010001
100100001011
11101001101
1111001000110111
11000110101
1001010000010
1111010111000101
1111100100001011
11101100
1111011101100100
1110000101011011
1010110100001
1011111100
11010010011
1111100110010001
101100011
