1110000110110101
1111111100100111
110101001
1111010111000001
1111100101010111
1110111001010100
1111111010011101
1110110111010000
1100001001101
1111111011000110
1110010011110111
100011111101
100000000101
1111111001011000
1010001011111
1111110101011010
100001000010
1111111101101100
1110110110001111
1111010010101011
100111001101
1111010101001110
110010111
100110011110
1001
1111111001001110
110011100001
1111010101100010
1001101001100
11110011
