1111001011011111
1110010111101101
1111111110010011
1111001100110111
1111010010000110
1111001010101011
1010110001010
10001010
11010101111
100101110111
1100001111
1110110011010001
1111100101011101
1001110111
101001100100
101111011110
1111100111001010
1111010101111101
1111110100100101
11010110000
101001000111
10010110001
1111100100101011
1111100011100010
1111110101000001
1111001001000110
10010111001
1111011011101110
1111001011101011
11101100111
