1111110110111101
1110100101101110
1111101101111111
10001011110
1111101011110011
1111010110101111
11100001001
1110100001
1111111111001110
1111110000011011
11010110100
1110110010100001
1111111010010001
100011011100
1000000010100
101010111111
1111100110100000
101010100101
1111100100001111
110100111011
1010010011
100100010101
101101101
1111100011111011
1111111110011111
1111011110010000
1111111011000010
1111000001011011
1111001100000101
1111101100101011
