100110110011
10111000000
1101101110
10110011011
1111111001111010
1010101010111
1110111000011101
110010010100
1111111111
1100000110001
10010010000
1110101111001010
1110101110111100
1000010000001
101111011
1111010001100011
1101110001011000
110000011011
10011101001
1111011010011100
1110110001001001
1001101110000
1111011010110
1011100011
11100101010
1111111111110011
1110101011001000
10110101
1111101000000111
1111000010
