1111100100011001
1110111000110001
1111110010000111
1111111011011001
1111110000011110
1111001011
1001100000001
1111011111
1111111010011000
1111111110111110
11110100100
1001010001011
1111111101111110
1111001101100111
101100001000
111011011011
110000100
1111100100110011
1111110011001000
11011110101
1111011111111010
111111100
111111111
1111010100110011
1110011111101011
111111011010
100000110
1111110100001011
1111111011101100
1111011111111011
