100111111110
110001110100
11101111
1100110010
11010110100
1001111000100
10010001000
100110010101
1111101000011110
1111111011011111
10110100111
1000101011
110001100001
101000100001
1111110000111110
1111001001000011
111001110
1111100111010100
100001000110
1110110011100110
1101001010
10000111001
1111101011100001
1111101001100001
111010100010
1010001111
1111010110000111
100011001010
11110100101
1111110011
