100111000011
111111110011
100101011011
1111111000100000
1111110011100110
1010000010010
110000101
1111110100110011
1111110111011100
1110111011000111
11010100110
1001110111010
110101111110
100001111
110011011
1111011110000101
1000110010010
1111100011101110
10110100
1110111010111011
111010110
1111100100001010
1111011111101010
1111010011110011
110111111
100111111100
1110101000
100110000100
1000111001011
10001100010
