1111001000010000
1111001011010011
10101100010
110100010001
1101101111
1111011111011011
1111000101000100
1110010011000010
1111111110010000
1111101010101100
1111010001011001
1110110
101001000001
1110111000011100
10001010110
1111111101101001
101110011010
1001011011111
1110111000100011
1111111110001011
100111001101
1111010000111111
1111111000010110
101101110100
100001011101
10110100010
100110101101
1111110000011110
101001110101
1110110011000001
