10100001
1111111001100010
1111111101000111
1111111011111111
101111110
100101010
1111111101001000
1001000
1101011
11001010
1111111101100101
1111111111000000
1111111100101110
1111111011000011
1111111110101010
1111111101111111
1111111100100111
1111111101111001
1111111110110111
1100111
101001100
10000101
101001110
1111111001101011
1111111010011011
100000101
1000100
1111111111001110
11110
1111111111011101
