1110111001100111
101000111
1001001101111
100110000
1110010111111001
1110110111011011
1111000110100001
1111100000011010
1111101010101010
1111111111001010
1111110111010001
1110011000010111
1110111111110001
1001010000
1111011101000000
1110111011101011
10101111100
1111000110110011
101101001110
1111011001
11001010011
1111100111000100
1111001000110100
1011000111001
1000111011101
1110111111111101
110001111100
110000100000
1111111000100111
10010101000
