1111011010101101
11101111
111000001011
1111010101000011
1110100001010000
1000100010
101111111101
1111011100110100
11111100100
10001011101
100001110011
1111000000010011
10101101111
1000110001011
110110111
1111111010101001
1111111001000111
1110111000100000
1111101111000010
1110110110000010
1000100111
1111000010
1111110000110111
1111111100011001
1000010011100
1110100000111100
1111100100001101
1111111011101001
1101110110
11100001010
