1111101110011
1000011110001
1111100100100000
111110110
111111010110
10010100110001
10111101010
1010011110000
1110101100010111
1111010110010111
10000011100001
1001101111
1001011001
110010001100
1111000110001101
10111111011
1111111000011110
1111110000011010
1101110111
1111001010010011
1111010001000010
1001110001110
11010101010
1110110010001110
1001011111
101000
1110100000001101
100110000100
1111101111010110
101100101010
