1001011001
1110001100010101
1110110010100000
10101100100
1101111101
1010111100
10000110001100
10010100011
100110101001
100000000110
111111000010
1111111101100
1110110101011000
1101111000000001
1101110001001001
1011110011111
1110100001101111
1110101110111101
1110101000000010
101100110011
1111101111101110
1110111111110010
1111110010001000
1111110111010000
1001011110010
1110110000000000
1101111110111
10111011101
1111111101100111
1101111100011101
