1111101010000000
100101101011
1110110110010
100100111110
111010100111
1111101111011110
1111001001110110
1010011110111
1110011100101100
1111101010100011
1011101001101
1010101011000
111111000010
111100010
11111111000
1111010010111111
1111010100001110
1111011110100011
1111000000001100
110010011011
101110010110
101010011001
1110000111011011
10000100101011
1111010010100011
10101011111101
1101110110011110
101010000110
1111111000000101
1110101110111001
