100011101010
1110111101000110
1110010111110101
10000111111011
1000011000111
11010011110
1111001001000011
111001111000
1111111111100001
11110010100
1111111110100001
1111111111101111
1111010100110100
1011010110100
1101100100011000
1110011010000111
1000111
1110111000111110
100100101101
1111001010001000
1101111011011011
1110001110011100
1111011101111011
111001001101
1111010000000010
1110001111100011
1110111101100001
1100001101111
1111111101001000
1101100111010
