1001001110
1111111011000000
1111000001011011
1110001000111100
1111000111100000
1111011101101100
111
1111101011101001
1010001001000
1111110100110110
1111000001110111
1110110000001001
10000101011
1111101000001111
1110101110110110
1111110000100000
100110110100
110100001000
111001000100
1111100010011110
1111010010001101
1110011011111100
1001111011000
1110101010100010
1111010110110111
1110001001111111
10010101101011
1110010001100101
100001110
110001000100
