1101111000100101
1111111110110000
110101011001
1111000010
1110111101011001
100011000
100100010000
1110010110100001
111000110001
1110110111010101
1111000011010101
1111001011000101
1111011111101111
1111101
111101000011
11011001111001
1110010000010010
1111000100101000
1111101110101110
1110010111010000
10010100011000
1010010110010
1111110100010001
1110111000111110
1011010101010
1111010111111011
1111111101111001
1111101110110001
11010
1111100101110010
